MEMORY_INITIALIZATION_RADIX=2;
MEMORY_INITIALIZATION_VECTOR=
00011110000111101101111011101111,
00010110000011101110000111100001,
00011111111010101110001000011101,
11100001000110100001011111100011,
00011100111000000001110000011100,
11100001000101110001101111100111,
00011101111000100001010011110001,
00010101111110000001000100010111,
11100000000111000001111100000011,
00011100000110000001101011100101,
00000000111001100000010100011000,
11111011111000011110100000011000,
00011001111111010001101011101010,
00011010000111010001001111100011,
11101010111100010001010111100111,
00011110000001011111000100010101,
00011001111010001110000111111010,
11101001111101100001010100011110,
11011111000101111110101100011110,
00011011000111011101111100011101,
11100000000001100001100111101101,
00011000000000101110011111100111,
11101010111001101111101011111011,
11101000111001010001110100010101,
11111010111110110001111011101001,
00011001110111111110011100011011,
00010011111000000001010000011111,
11100000000100110001100100011111,
00001011111010000001111011100110,
11111111111010010000001011100011,
00010111000111101111100111100001,
11111010111101001110011000011101;
