0001111000011110
1101111011101111
0001011000001110
1110000111100001
0001111111101010
1110001000011101
1110000100011010
0001011111100011
0001110011100000
0001110000011100
1110000100010111
0001101111100111
0001110111100010
0001010011110001
0001010111111000
0001000100010111
1110000000011100
0001111100000011
0001110000011000
0001101011100101
0000000011100110
0000010100011000
1111101111100001
1110100000011000
0001100111111101
0001101011101010
0001101000011101
0001001111100011
1110101011110001
0001010111100111
0001111000000101
1111000100010101
0001100111101000
1110000111111010
1110100111110110
0001010100011110
1101111100010111
1110101100011110
0001101100011101
1101111100011101
1110000000000110
0001100111101101
0001100000000010
1110011111100111
1110101011100110
1111101011111011
1110100011100101
0001110100010101
1111101011111011
0001111011101001
0001100111011111
1110011100011011
0001001111100000
0001010000011111
1110000000010011
0001100100011111
0000101111101000
0001111011100110
1111111111101001
0000001011100011
0001011100011110
1111100111100001
1111101011110100
1110011000011101
